{"<|endoftext|>": 0, "\u0100": 1, "\u0101": 2, "\u0102": 3, "\u0103": 4, "\u0104": 5, "\u0105": 6, "\u0106": 7, "\u0107": 8, "\u0108": 9, "\u0109": 10, "\u010a": 11, "\u010b": 12, "\u010c": 13, "\u010d": 14, "\u010e": 15, "\u010f": 16, "\u0110": 17, "\u0111": 18, "\u0112": 19, "\u0113": 20, "\u0114": 21, "\u0115": 22, "\u0116": 23, "\u0117": 24, "\u0118": 25, "\u0119": 26, "\u011a": 27, "\u011b": 28, "\u011c": 29, "\u011d": 30, "\u011e": 31, "\u011f": 32, "\u0120": 33, "!": 34, "\"": 35, "#": 36, "$": 37, "%": 38, "&": 39, "'": 40, "(": 41, ")": 42, "*": 43, "+": 44, ",": 45, "-": 46, ".": 47, "/": 48, "0": 49, "1": 50, "2": 51, "3": 52, "4": 53, "5": 54, "6": 55, "7": 56, "8": 57, "9": 58, ":": 59, ";": 60, "<": 61, "=": 62, ">": 63, "?": 64, "@": 65, "A": 66, "B": 67, "C": 68, "D": 69, "E": 70, "F": 71, "G": 72, "H": 73, "I": 74, "J": 75, "K": 76, "L": 77, "M": 78, "N": 79, "O": 80, "P": 81, "Q": 82, "R": 83, "S": 84, "T": 85, "U": 86, "V": 87, "W": 88, "X": 89, "Y": 90, "Z": 91, "[": 92, "\\": 93, "]": 94, "^": 95, "_": 96, "`": 97, "a": 98, "b": 99, "c": 100, "d": 101, "e": 102, "f": 103, "g": 104, "h": 105, "i": 106, "j": 107, "k": 108, "l": 109, "m": 110, "n": 111, "o": 112, "p": 113, "q": 114, "r": 115, "s": 116, "t": 117, "u": 118, "v": 119, "w": 120, "x": 121, "y": 122, "z": 123, "{": 124, "|": 125, "}": 126, "~": 127, "\u0121": 128, "\u0122": 129, "\u0123": 130, "\u0124": 131, "\u0125": 132, "\u0126": 133, "\u0127": 134, "\u0128": 135, "\u0129": 136, "\u012a": 137, "\u012b": 138, "\u012c": 139, "\u012d": 140, "\u012e": 141, "\u012f": 142, "\u0130": 143, "\u0131": 144, "\u0132": 145, "\u0133": 146, "\u0134": 147, "\u0135": 148, "\u0136": 149, "\u0137": 150, "\u0138": 151, "\u0139": 152, "\u013a": 153, "\u013b": 154, "\u013c": 155, "\u013d": 156, "\u013e": 157, "\u013f": 158, "\u0140": 159, "\u0141": 160, "\u0142": 161, "\u00a1": 162, "\u00a2": 163, "\u00a3": 164, "\u00a4": 165, "\u00a5": 166, "\u00a6": 167, "\u00a7": 168, "\u00a8": 169, "\u00a9": 170, "\u00aa": 171, "\u00ab": 172, "\u00ac": 173, "\u0143": 174, "\u00ae": 175, "\u00af": 176, "\u00b0": 177, "\u00b1": 178, "\u00b2": 179, "\u00b3": 180, "\u00b4": 181, "\u00b5": 182, "\u00b6": 183, "\u00b7": 184, "\u00b8": 185, "\u00b9": 186, "\u00ba": 187, "\u00bb": 188, "\u00bc": 189, "\u00bd": 190, "\u00be": 191, "\u00bf": 192, "\u00c0": 193, "\u00c1": 194, "\u00c2": 195, "\u00c3": 196, "\u00c4": 197, "\u00c5": 198, "\u00c6": 199, "\u00c7": 200, "\u00c8": 201, "\u00c9": 202, "\u00ca": 203, "\u00cb": 204, "\u00cc": 205, "\u00cd": 206, "\u00ce": 207, "\u00cf": 208, "\u00d0": 209, "\u00d1": 210, "\u00d2": 211, "\u00d3": 212, "\u00d4": 213, "\u00d5": 214, "\u00d6": 215, "\u00d7": 216, "\u00d8": 217, "\u00d9": 218, "\u00da": 219, "\u00db": 220, "\u00dc": 221, "\u00dd": 222, "\u00de": 223, "\u00df": 224, "\u00e0": 225, "\u00e1": 226, "\u00e2": 227, "\u00e3": 228, "\u00e4": 229, "\u00e5": 230, "\u00e6": 231, "\u00e7": 232, "\u00e8": 233, "\u00e9": 234, "\u00ea": 235, "\u00eb": 236, "\u00ec": 237, "\u00ed": 238, "\u00ee": 239, "\u00ef": 240, "\u00f0": 241, "\u00f1": 242, "\u00f2": 243, "\u00f3": 244, "\u00f4": 245, "\u00f5": 246, "\u00f6": 247, "\u00f7": 248, "\u00f8": 249, "\u00f9": 250, "\u00fa": 251, "\u00fb": 252, "\u00fc": 253, "\u00fd": 254, "\u00fe": 255, "\u00ff": 256, "\u0120t": 257, "he": 258, "\u0120a": 259, "\u0120s": 260, "nd": 261, "\u0120w": 262, "\u0120the": 263, "ed": 264, "\u0120b": 265, "\u0120to": 266, "\u0120and": 267, "\u0120h": 268, "\u0120f": 269, "in": 270, "\u0120T": 271, "\u0120wa": 272, "re": 273, "it": 274, "ou": 275, "\u0120l": 276, "\u0120d": 277, "\u0120c": 278, "\u0120p": 279, "ay": 280, "\u0120m": 281, "er": 282, "\u0120was": 283, "om": 284, "\u0120The": 285, "\u0120he": 286, "is": 287, "ar": 288, "\u0120n": 289, "im": 290, "on": 291, "\u0120sa": 292, "id": 293, "ll": 294, "\u0120ha": 295, "\u0120g": 296, "at": 297, "\u0120S": 298, "ing": 299, "ot": 300, "en": 301, "an": 302, "le": 303, "or": 304, "end": 305, "ir": 306, "of": 307, "am": 308, "et": 309, "\u0120H": 310, "\u0120it": 311, "\u0120th": 312, "ig": 313, "\u0120They": 314, "\u0120in": 315, "il": 316, "\u0120pl": 317, "\u0120He": 318, "\u0120\"": 319, "ow": 320, "ver": 321, "ri": 322, "ut": 323, "\u0120be": 324, "\u0120u": 325, "\u0120said": 326, "\u0120play": 327, "ith": 328, "\u0120day": 329, "\u0120with": 330, "pp": 331, "On": 332, "\u0120y": 333, "oo": 334, "ked": 335, "\u0120r": 336, "ex": 337, "\u0120her": 338, "ce": 339, "\u0120I": 340, "\u0120She": 341, "ld": 342, "\u0120Tim": 343, "\u0120his": 344, "\u0120st": 345, "ke": 346, "\u0120big": 347, "nt": 348, "ck": 349, "\u0120you": 350, "very": 351, "st": 352, "ve": 353, "\u0120on": 354, "un": 355, "\u0120happ": 356, "riend": 357, "\u0120friend": 358, "all": 359, "ily": 360, "ext": 361, "\u0120L": 362, "\u0120they": 363, "oft": 364, "\u0120we": 365, "\u0120had": 366, "\u0120not": 367, "\u0120li": 368, "\u0120up": 369, "her": 370, "\u0120want": 371, "\u0120of": 372, "ad": 373, "itt": 374, "|>": 375, "<|": 376, "oftext": 377, "endoftext": 378, "se": 379, "\u0120B": 380, "\u0120do": 381, "\u0120e": 382, "\u0120happy": 383, "ent": 384, "\u0120very": 385, "\u0120M": 386, "es": 387, "\u0120that": 388, "\u0120saw": 389, "One": 390, "'s": 391, "ould": 392, "\u0120mom": 393, "\u0120for": 394, "\u0120sh": 395, "ittle": 396, "\u0120little": 397, "\u0120she": 398, "ch": 399, "ime": 400, "\u0120nam": 401, ".\"": 402, "\u0120time": 403, "\u0120k": 404, "ound": 405, "\u0120so": 406, "\u0120there": 407, "\u0120named": 408, "\u0120sm": 409, "\u0120bo": 410, "\u0120were": 411, "\u0120Lily": 412, "\u0120ne": 413, "\u0120wanted": 414, "\u0120but": 415, "out": 416, "The": 417, "\u0120friends": 418, "ved": 419, "!\"": 420, "ht": 421, "\u0120Tom": 422, "ird": 423, "el": 424, "\u0120bird": 425, "al": 426, "\u0120an": 427, "ake": 428, "\u0120too": 429, "ome": 430, "\u0120It": 431, "ug": 432, "ide": 433, "\u0120went": 434, "\u0120wh": 435, "\u0120hel": 436, "Once": 437, "\u0120is": 438, "\u0120all": 439, "\u0120help": 440, "ue": 441, "\u0120loo": 442, "\u0120lo": 443, "ter": 444, "\u0120A": 445, "\u0120upon": 446, "ry": 447, "ore": 448, "ind": 449, "\u0120fun": 450, "get": 451, "\u0120toy": 452, "ill": 453, "ame": 454, "\u0120as": 455, "\u0120at": 456, "ra": 457, "\u0120j": 458, "\u0120did": 459, "gether": 460, "\u0120re": 461, "ur": 462, "\u0120o": 463, "\u0120se": 464, "\u0120together": 465, "ack": 466, "\u0120cat": 467, "ly": 468, "\u0120tre": 469, "ood": 470, "ic": 471, "ted": 472, "\u0120dog": 473, "\u0120could": 474, "\u0120can": 475, "\u0120their": 476, "ard": 477, "ec": 478, "ark": 479, "\u0120gir": 480, "\u0120played": 481, "\u0120him": 482, "\u0120ball": 483, "?\"": 484, "\u0120girl": 485, "\u0120ro": 486, "way": 487, "\u0120go": 488, "hed": 489, "my": 490, "\u0120are": 491, "\u0120out": 492, "\u0120le": 493, "\u0120fr": 494, "ain": 495, "\u0120kn": 496, "hen": 497, "\u0120them": 498, "um": 499, "'t": 500, "ax": 501, "\u0120sad": 502, "ul": 503, "\u0120boy": 504, "\u0120tree": 505, "other": 506, "\u0120have": 507, "\u0120man": 508, "\u0120cl": 509, "\u0120loved": 510, "\u0120looked": 511, "oug": 512, "\u0120found": 513, "\u0120sp": 514, "\u0120star": 515, "\u0120Sue": 516, "one": 517, "hing": 518, "\u0120sc": 519, "\u0120back": 520, "own": 521, "\u0120Max": 522, "are": 523, "\u0120like": 524, "ful": 525, "side": 526, "\u0120me": 527, "\u0120bec": 528, "\u0120park": 529, "ight": 530, "ong": 531, "\u0120car": 532, "op": 533, "elt": 534, "\u0120One": 535, "\u0120liked": 536, "\u0120would": 537, "\u0120make": 538, "round": 539, "\u0120la": 540, "\u0120fa": 541, "\u0120felt": 542, "You": 543, "\u0120W": 544, "ell": 545, "\u0120see": 546, "\u0120But": 547, "omet": 548, "\u0120asked": 549, "ag": 550, "\u0120new": 551, "\u0120no": 552, "ice": 553, "\u0120Sam": 554, "ouse": 555, "\u0120started": 556, "ared": 557, "\u0120came": 558, "\u0120Ben": 559, "\u0120al": 560, "\u0120other": 561, "ought": 562, "iled": 563, "\u0120somet": 564, "\u0120ag": 565, "\u0120good": 566, "\u0120small": 567, "ss": 568, "\u0120br": 569, "\u0120smiled": 570, "\u0120say": 571, "ried": 572, "ade": 573, "ings": 574, "ob": 575, "pot": 576, "\u0120wor": 577, "\u0120find": 578, "ia": 579, "\u0120away": 580, "ty": 581, "\u0120put": 582, "\u0120ex": 583, "\u0120what": 584, "\u0120something": 585, "\u0120from": 586, "\u0120made": 587, "\u0120thought": 588, "ened": 589, "\u0120home": 590, "\u0120playing": 591, "\u0120co": 592, "ook": 593, "\u0120every": 594, "\u0120wal": 595, "\u0120mu": 596, "uc": 597, "ach": 598, "arn": 599, "\u0120Spot": 600, "\u0120ran": 601, "ile": 602, "\u0120F": 603, "ie": 604, "\u0120J": 605, "ave": 606, "\u0120again": 607, "\u0120some": 608, "\u0120laug": 609, "dd": 610, "\u0120house": 611, "\u0120down": 612, "\u0120fl": 613, "king": 614, "\u0120took": 615, "\u0120scared": 616, "\u0120pr": 617, "ny": 618, "ure": 619, "\u0120toys": 620, "\u0120learn": 621, "\u0120You": 622, "if": 623, "\u0120will": 624, "\u0120box": 625, "ick": 626, "ret": 627, "ab": 628, "ep": 629, "\u0120my": 630, "\u0120around": 631, "\u0120things": 632, "\u0120your": 633, "oud": 634, "\u0120bl": 635, "uck": 636, "\u0120when": 637, "ish": 638, "\u0120lived": 639, "\u0120fe": 640, "\u0120then": 641, "\u0120sun": 642, "as": 643, "\u0120sw": 644, ",\"": 645, "\u0120ch": 646, "us": 647, "pped": 648, "\u0120ab": 649, "\u0120Mia": 650, "ank": 651, "\u0120get": 652, "ucy": 653, "Tim": 654, "ump": 655, "Th": 656, "\u0120lot": 657, "ist": 658, "oth": 659, "\u0120tried": 660, "ap": 661, "\u0120know": 662, "\u0120says": 663, "\u0120got": 664, "ited": 665, "\u0120who": 666, "\u0120kne": 667, "ust": 668, "\u0120many": 669, "nder": 670, "\u0120int": 671, "\u0120about": 672, "Lily": 673, "\u0120pret": 674, "\u0120dec": 675, "\u0120any": 676, "\u0120red": 677, "\u0120D": 678, "ive": 679, "\u0120knew": 680, "ace": 681, "ous": 682, "\u0120more": 683, "ise": 684, "\u0120v": 685, "\u0120care": 686, "ally": 687, "\u0120pic": 688, "au": 689, "qu": 690, "\u0120hug": 691, "\u0120Lucy": 692, "\u0120learned": 693, "\u0120po": 694, "\u0120water": 695, "fter": 696, "\u0120became": 697, "\u0120best": 698, "ause": 699, "\u0120op": 700, "\u0120gre": 701, "\u0120exc": 702, "urp": 703, "ways": 704, "\u00e2\u0122": 705, "\u0120outside": 706, "\u0120laughed": 707, "\u0120look": 708, "\u0120always": 709, "\u0120decid": 710, "\u0120show": 711, "\u0120un": 712, "ant": 713, "\u0120Bob": 714, "\u0120room": 715, "fe": 716, "\u0120decided": 717, "\u0120ho": 718, "\u0120because": 719, "\u0120into": 720, "\u0120So": 721, "\u0120eat": 722, "ite": 723, "\u0120jump": 724, "\u0120And": 725, "\u0120pe": 726, "\u0120both": 727, "ers": 728, "\u0120Mom": 729, "\u0120dad": 730, "They": 731, "udd": 732, "\u0120ke": 733, "\u0120one": 734, "nn": 735, "\u0120this": 736, "\u0120excited": 737, "\u0120fast": 738, "\u0120nice": 739, "\u0120E": 740, "\u0120feel": 741, "Tom": 742, "Yes": 743, "\u0120run": 744, "\u0120long": 745, "\u0120told": 746, "\u0120sk": 747, "\u0120am": 748, "urpr": 749, "our": 750, "\u0120inside": 751, "ull": 752, "\u0120tr": 753, "\u0120surpr": 754, "\u0120mo": 755, "ink": 756, "\u0120pretty": 757, "iny": 758, "\u0120sor": 759, "Wh": 760, "\u0120take": 761, "og": 762, "\u0120sl": 763, "\u0120each": 764, "\u0120gave": 765, "\u0120much": 766, "\u0120gra": 767, "lew": 768, "nna": 769, "\u0120rock": 770, "\u0120how": 771, "\u0120str": 772, "ara": 773, "imal": 774, "\u0120animal": 775, "ged": 776, "\u0120need": 777, "\u0120than": 778, "But": 779, "ven": 780, "etter": 781, "\u0120tow": 782, "\u0120or": 783, "\u0120C": 784, "\u0120under": 785, "ess": 786, "\u0120old": 787, "\u0120sorry": 788, "ge": 789, "ised": 790, "ro": 791, "urt": 792, "\u0120cle": 793, "\u0120fish": 794, "\u0120walked": 795, "\u0120clo": 796, "and": 797, "\u0120bear": 798, "ase": 799, "ast": 800, "\u0120hand": 801, "urn": 802, "\u0120We": 803, "\u0120kind": 804, "\u0120His": 805, "here": 806, "\u0120happened": 807, "\u0120just": 808, "\u0120flow": 809, "\u0120food": 810, "\u0120list": 811, "\u0120didn": 812, "\u0120te": 813, "\u0120animals": 814, "\u0120hig": 815, "pl": 816, "\u0120near": 817, "\u0120wat": 818, "\u0120ide": 819, "\u0120try": 820, "ched": 821, "\u0120sky": 822, "ine": 823, "\u0120sn": 824, "ving": 825, "\u0120fi": 826, "rom": 827, "\u0120us": 828, "\u0120idea": 829, "\u0120better": 830, "\u0120Amy": 831, "\u0120bug": 832, "\u0120heard": 833, "gry": 834, "\u0120its": 835, "\u0120tw": 836, "\u0120let": 837, "pec": 838, "ate": 839, "able": 840, "ff": 841, "\u0120en": 842, "\u0120careful": 843, "\u0120share": 844, "\u0120if": 845, "Thank": 846, "Mom": 847, "\u0120fly": 848, "\u0120stor": 849, "ial": 850, "\u0120flew": 851, "more": 852, "\u0120anymore": 853, "\u0120Th": 854, "\u0120spec": 855, "\u0120special": 856, "ion": 857, "\u0120com": 858, "\u0120lots": 859, "\u0120never": 860, "\u0120by": 861, "lf": 862, "ream": 863, "\u0120dan": 864, "\u0120bu": 865, "\u0120fo": 866, "\u0120wind": 867, "\u0120don": 868, "\u0120tal": 869, "\u0120clean": 870, "ort": 871, "\u0120gr": 872, "\u0120love": 873, "rm": 874, "ber": 875, "\u0120end": 876, "\u0120Then": 877, "ople": 878, "\u0120even": 879, "\u0120mag": 880, "\u0120hard": 881, "\u0120shiny": 882, "udden": 883, "\u0120fore": 884, "\u0120over": 885, "\u0120cake": 886, "ak": 887, "\u0120book": 888, "\u0120col": 889, "\u0120turn": 890, "\u0120fam": 891, "\u0120bad": 892, "\u0120safe": 893, "\u0120after": 894, "ady": 895, "\u0120Anna": 896, "uddenly": 897, "\u0120people": 898, "\u0120proud": 899, "\u0120Every": 900, "\u0120surprised": 901, "pected": 902, "Let": 903, "\u0120high": 904, "\u0120cu": 905, "\u0120hurt": 906, "\u0120come": 907, "imb": 908, "arden": 909, "\u0120door": 910, "\u0120garden": 911, "bb": 912, "\u0120ground": 913, "\u0120opened": 914, "\u0120picked": 915, "\u0120loud": 916, "\u0120climb": 917, "expected": 918, "\u0120unexpected": 919, "\u0120gl": 920, "\u0120che": 921, "ild": 922, "\u0120im": 923, "As": 924, "\u0120give": 925, "\u0120way": 926, "ail": 927, "'m": 928, "\u0120thanked": 929, "\u0120color": 930, "\u0120blue": 931, "\u0120still": 932, "\u0120ever": 933, "\u0120hugged": 934, "\u0120From": 935, "\u0120call": 936, "\u0120far": 937, "ip": 938, "\u0120Her": 939, "\u0120Sara": 940, "\u0120When": 941, "No": 942, "\u0120off": 943, "\u0120magic": 944, "iz": 945, "ough": 946, "age": 947, "ummy": 948, "\u0120K": 949, "\u0120jumped": 950, "\u0120should": 951, "\u0120family": 952, "\u0120par": 953, "ool": 954, "\u0120kid": 955, "\u0120smile": 956, "hes": 957, "uff": 958, "\u0120place": 959, "kay": 960, "\u0120walk": 961, "\u0120now": 962, "ct": 963, "\u0120In": 964, "\u0120great": 965, "em": 966, "\u0120qu": 967, "les": 968, "\u0120strong": 969, "\u0120stay": 970, "\u0120unt": 971, "\u0120sto": 972, "aut": 973, "\u0120forest": 974, "ture": 975, "ane": 976, "\u0120bra": 977, "itty": 978, "\u0120P": 979, "\u0120frog": 980, "\u0120bro": 981, "\u0120until": 982, "oon": 983, "\u0120beaut": 984, "dy": 985, "\u0120squ": 986, "\u0120stick": 987, "\u0120next": 988, "\u0120boat": 989, "lease": 990, "ning": 991, "\u0120happily": 992, "\u0120listen": 993, "aking": 994, "\u0120kids": 995, "\u0120tra": 996, "ies": 997, "iful": 998, "\u0120beautiful": 999, "\u0120app": 1000, "th": 1001, "\u0120helped": 1002, "\u0120dra": 1003, "\u0120showed": 1004, "\u0120clos": 1005, "be": 1006, "\u0120imp": 1007, "\u0120story": 1008, "unny": 1009, "oy": 1010, "\u0120while": 1011, "\u0120town": 1012, "rel": 1013, "pt": 1014, "\u0120rain": 1015, "ress": 1016, "\u0120picture": 1017, "\u0120being": 1018, "\u0120rem": 1019, "It": 1020, "\u0120everyone": 1021, "ary": 1022, "ree": 1023, "\u0120mor": 1024, "\u0120hat": 1025, "\u0120called": 1026, "\u0120met": 1027, "\u0120stopped": 1028, "\u0120ad": 1029, "\u0120game": 1030, "Now": 1031, "He": 1032, "\u0120wo": 1033, "Can": 1034, "\u0120angry": 1035, "ger": 1036, "uffy": 1037, "\u0120soft": 1038, "\u0120open": 1039, "\u0120truck": 1040, "\u0120keep": 1041, "When": 1042, "\u0120cry": 1043, "\u0120yummy": 1044, "\u0120lost": 1045, "\u0120bed": 1046, "\u0120Let": 1047, "\u0120Sally": 1048, "\u0120warm": 1049, "by": 1050, "vent": 1051, "\u0120brave": 1052, "\u0120mouse": 1053, "\u0120Wh": 1054, "\u0120ate": 1055, "\u0120Kitty": 1056, "ished": 1057, "\u0120de": 1058, "fore": 1059, "\u0120doll": 1060, "so": 1061, "\u0120couldn": 1062, "\u0120watch": 1063, "\u0120leave": 1064, "\u0120also": 1065, "dded": 1066, "\u0120fell": 1067, "\u0120green": 1068, "\u0120face": 1069, "\u0120two": 1070, "gan": 1071, "iss": 1072, "\u0120flowers": 1073, "bit": 1074, "What": 1075, "\u0120R": 1076, "ble": 1077, "\u0120noise": 1078, "abbit": 1079, "irst": 1080, "owl": 1081, "\u0120where": 1082, "az": 1083, "ock": 1084, "\u0120soon": 1085, "self": 1086, "\u0120slide": 1087, "\u0120rabbit": 1088, "\u0120hole": 1089, "luffy": 1090, "\u0120before": 1091, "irrel": 1092, "\u0120pus": 1093, "ired": 1094, "\u0120sat": 1095, "illy": 1096, "\u0120hear": 1097, "\u0120use": 1098, "\u00e2\u0122\u013f": 1099, "Hi": 1100, "\u0120pa": 1101, "\u0120kept": 1102, "\u00e2\u0122\u013e": 1103, "That": 1104, "\u0120squirrel": 1105, "ear": 1106, "Then": 1107, "ma": 1108, "\u0120nodded": 1109, "\u0120expl": 1110, "\u0120store": 1111, "\u0120cook": 1112, "\u0120hands": 1113, "Look": 1114, "\u0120birds": 1115, "\u0120pain": 1116, "\u0120going": 1117, "\u0120funny": 1118, "\u0120having": 1119, "day": 1120, "\u0120sing": 1121, "aybe": 1122, "uch": 1123, "\u0120ey": 1124, "aug": 1125, "\u0120catch": 1126, "aught": 1127, "\u0120Can": 1128, "\u0120Fluffy": 1129, "uit": 1130, "\u0120yell": 1131, "\u0120think": 1132, "leep": 1133, "\u0120cra": 1134, "\u0120fin": 1135, "Ben": 1136, "\u0120bre": 1137, "\u0120fix": 1138, "\u0120tired": 1139, "\u0120bunny": 1140, "\u0120used": 1141, "\u0120looking": 1142, "\u0120bus": 1143, "ange": 1144, "air": 1145, "\u0120work": 1146, "\u0120wr": 1147, "ting": 1148, "\u0120our": 1149, "\u0120pull": 1150, "We": 1151, "\u0120thr": 1152, "thing": 1153, "\u0120Now": 1154, "\u0120wait": 1155, "\u0120kit": 1156, "\u0120sound": 1157, "\u0120jo": 1158, "\u0120has": 1159, "\u0120G": 1160, "\u0120mean": 1161, "\u0120pond": 1162, "ember": 1163, "\u0120beh": 1164, "\u0120dr": 1165, "\u0120sunny": 1166, "led": 1167, "\u0120others": 1168, "\u0120ask": 1169, "ng": 1170, "chen": 1171, "\u0120kitchen": 1172, "\u0120talk": 1173, "\u0120flo": 1174, "\u0120dif": 1175, "rew": 1176, "\u0120pie": 1177, "\u0120head": 1178, "\u0120Jo": 1179, "\u0120real": 1180, "\u0120first": 1181, "\u0120tri": 1182, "\u0120mommy": 1183, "\u0120eyes": 1184, "ello": 1185, "\u0120import": 1186, "Hello": 1187, "\u0120fav": 1188, "ath": 1189, "joy": 1190, "\u0120z": 1191, "\u0120remember": 1192, "\u0120right": 1193, "\u0120flower": 1194, "\u0120con": 1195, "\u0120mess": 1196, "\u0120party": 1197, "\u0120cold": 1198, "\u0120Do": 1199, "\u0120vo": 1200, "\u0120swe": 1201, "ious": 1202, "ft": 1203, "\u0120sand": 1204, "\u0120\u00e2\u0122\u013e": 1205, "ac": 1206, "orn": 1207, "\u0120race": 1208, "\u0120curi": 1209, "imes": 1210, "\u0120important": 1211, "\u0120duck": 1212, "\u0120moral": 1213, "\u0120shared": 1214, "zy": 1215, "ount": 1216, "\u0120Jack": 1217, "\u0120ice": 1218, "\u0120okay": 1219, "\u0120advent": 1220, "\u0120worked": 1221, "llow": 1222, "At": 1223, "\u0120enjoy": 1224, "\u0120dress": 1225, "\u0120bright": 1226, "\u0120making": 1227, "\u0120curious": 1228, "\u0120own": 1229, "ded": 1230, "\u0120tall": 1231, "\u0120dir": 1232, "\u0120hop": 1233, "reed": 1234, "\u0120hid": 1235, "\u0120favor": 1236, "\u0120ri": 1237, "hn": 1238, "\u0120sleep": 1239, "\u0120dis": 1240, "Wow": 1241, "\u0120favorite": 1242, "\u0120thing": 1243, "\u0120began": 1244, "\u0120mon": 1245, "\u0120bag": 1246, "\u0120hill": 1247, "Don": 1248, "\u0120cla": 1249, "\u0120draw": 1250, "\u0120rest": 1251, "\u0120here": 1252, "\u0120yard": 1253, "\u0120tell": 1254, "\u0120Fin": 1255, "ster": 1256, "\u0120watched": 1257, "que": 1258, "\u0120follow": 1259, "\u0120move": 1260, "\u0120bel": 1261, "ect": 1262, "\u0120cut": 1263, "\u0120night": 1264, "\u0120agreed": 1265, "\u0120pick": 1266, "co": 1267, "\u0120block": 1268, "\u0120hun": 1269, "aper": 1270, "lly": 1271, "\u0120stop": 1272, "\u0120behind": 1273, "\u0120This": 1274, "\u0120surprise": 1275, "ied": 1276, "\u0120sho": 1277, "\u0120hot": 1278, "After": 1279, "\u0120table": 1280, "\u0120grass": 1281, "\u0120worry": 1282, "\u0120dark": 1283, "\u0120trees": 1284, "\u0120voice": 1285, "\u0120walking": 1286, "ede": 9999}